[PAD]
[UNK]
[START]
[END]
!
"
$
%
&
'
(
)
+
,
-
.
/
0
1
2
3
4
5
6
7
8
9
:
;
?
a
b
c
d
e
f
g
h
i
j
k
l
m
n
o
p
q
r
s
t
u
v
w
x
y
z
«
»
œ
‘
’
‽
je
de
est
pas
vous
que
il
la
ne
le
tu
tom
ce
un
ai
nous
en
une
les
suis
pour
me
qu
elle
faire
ca
##s
des
dans
plus
du
qui
moi
tout
te
veux
etait
fait
etre
avec
as
au
mon
se
etes
si
et
sont
sur
avez
cette
ils
es
pense
ou
peux
tres
son
votre
cela
temps
ete
dit
pourquoi
ici
ma
sais
on
lui
##e
chose
toi
jamais
comment
bien
avons
vraiment
ont
ton
aime
quelque
dire
tous
par
beaucoup
besoin
avoir
elles
sa
aller
peut
personne
sommes
rien
etais
peu
parler
maison
va
quand
comme
toujours
mes
trop
##r
encore
quoi
train
deux
meme
monde
mary
voir
arrive
avait
argent
dois
mais
vais
francais
bon
ta
autre
combien
voiture
faut
soit
aimerais
ses
air
fois
aujourd
hui
##z
passe
travail
maintenant
avais
aussi
ceci
plait
##nt
fais
hier
vu
marie
quelle
quel
juste
demande
aider
chez
pouvez
deja
eu
pensais
pere
apres
ces
notre
quelqu
porte
noel
bonne
toutes
demain
livre
prendre
sans
parle
mieux
trouve
seul
avant
assez
voulez
trois
aide
probleme
mal
puis
devrais
enfants
heure
manger
ecole
tes
laisse
gens
savoir
vie
aux
##es
toute
vos
soir
heures
jour
chien
mere
cet
nuit
quelques
choses
aurais
fut
homme
grand
moment
partir
pris
voulais
donne
idee
simplement
boston
dis
sens
derniere
ans
venir
jours
espere
##a
petit
veut
heureux
peur
tot
nouveau
rester
sait
depuis
faites
amis
achete
##ment
reste
eau
difficile
savais
raison
non
pu
semaine
semble
seule
mange
sois
ami
soyez
rendre
croire
part
pourrais
jusqu
entendu
##t
pendant
acheter
leur
parents
souvent
fille
entre
femme
##ent
question
chambre
longtemps
pouvons
nom
matin
crois
prie
tard
oublie
sera
devons
fete
perdu
dejeuner
etaient
pourrait
trouver
moins
vrai
aucun
penses
telephone
desole
arrete
commence
fort
lire
lorsque
retard
aucune
##i
viens
jouer
presque
vas
dont
connais
doit
allez
piece
etiez
regarde
autres
nouvelle
sujet
famille
allons
cafe
enfant
journee
lit
passer
ville
dites
merci
attendre
sortir
travailler
annee
frere
mort
verite
main
anglais
voudrais
chaque
##it
savez
pensez
accord
adore
essaye
travaille
devriez
##ons
alle
veuillez
bureau
occupe
entendre
lettre
point
devez
##ai
bus
prends
grande
davantage
apprecie
jeune
sous
voulait
petite
histoire
sœur
tellement
mis
age
ensemble
laissez
dix
partie
ignore
envie
tete
essayer
livres
pouvoir
chance
suppose
apprendre
fini
montre
vite
donner
venu
coup
arreter
comprends
ci
photo
serait
alors
devrions
nager
seulement
mauvais
froid
personnes
attention
devrait
heureuse
joue
deteste
erreur
marche
vivre
yeux
fils
pret
demander
questions
midi
nos
serai
facile
pres
vois
accident
ecrire
celui
reunion
fatigue
vieux
gare
colere
serais
cote
place
vue
ecrit
ferais
endroit
comprendre
confiance
nourriture
bas
mettre
meilleur
mois
amie
bientot
chat
malade
pourriez
conduire
dernier
reponse
compte
film
velo
##ait
contre
garcon
maniere
sure
importe
dur
police
feu
belle
regarder
mot
laisser
vient
premier
##re
autant
boire
minutes
possible
prix
table
medecin
pays
dormir
exactement
ainsi
chemin
prefere
##te
etudier
arriver
dessus
genre
tant
parti
verre
musique
cheveux
plutot
decide
diner
loin
pouvais
aimes
aurait
cause
prochaine
rencontre
visite
fenetre
voyage
leurs
probablement
premiere
beau
dehors
lieu
quiconque
plan
puisse
##ur
appris
desolee
faim
chanter
boulot
professeur
choix
payer
penser
affaire
cours
etions
gros
important
vin
chaud
##ais
change
prenez
attends
peuvent
japon
intention
perdre
##ne
propos
problemes
australie
ferme
termine
vont
appeler
pouvait
auparavant
habitude
ait
manque
emploi
cadeau
devoirs
terre
##ez
repondre
vit
content
rencontrer
appelle
prete
surpris
chercher
cinq
nouvelles
recu
securite
bois
gagne
prochain
utiliser
marcher
parce
boite
discuter
lundi
mains
immediatement
savait
essaie
##iez
chaussures
equipe
garde
assis
eux
agit
dispose
lu
peine
the
classe
derriere
decision
##ant
cœur
vers
##is
##l
fumer
occupee
produit
etudie
rentrer
revoir
route
voulons
arbre
changer
devenir
faisons
blesse
mauvaise
nombreux
entrer
rappelle
biere
rapidement
appele
tomber
chanson
facon
ferai
celle
completement
neige
ordinateur
riche
langue
laquelle
situation
trente
necessaire
##n
sante
propre
##se
bruit
cuisine
faisait
secret
television
rue
fin
parfois
plein
souviens
vetements
devant
font
hotel
hopital
avion
ayez
chapeau
etudiants
lorsqu
montrer
tombe
vacances
aimez
vis
affaires
bras
gagner
rouge
poste
vouloir
bebe
magasin
tennis
veulent
##use
cle
donc
soleil
œil
coute
fit
journal
numero
sac
stupide
ceux
instant
fier
parc
soin
ecoute
fasse
lait
vieille
restaurant
connait
tort
##mes
carte
long
lumiere
poser
##le
guerre
quatre
sorte
commencer
fonctionne
##ux
dollars
droit
examen
garder
interessant
##ra
anniversaire
nombreuses
annees
leve
##ie
etranger
tele
casse
mets
retour
riviere
certain
desormais
meilleure
plaisir
rentre
donnez
liste
restez
amies
capable
paye
robe
voudriez
cas
conseil
rire
##ient
gateau
mots
chiens
jardin
libre
mourir
reve
minute
pied
plage
plusieurs
prend
rapport
voulu
ouvrir
rendu
##ge
fleurs
parlez
devoir
vaut
vole
six
souhaite
tasse
arretez
avis
hommes
compris
lequel
venez
voici
aies
filles
porter
pleurer
pluie
suffisamment
moindre
continue
mesure
type
amour
bibliotheque
interesse
suite
dictionnaire
manteau
resoudre
seriez
week
excuses
ecouter
etrange
finir
fou
rendez
cherche
finalement
reparer
dormi
ouvert
rend
aviez
dimanche
expliquer
cher
faute
pleuvoir
##o
devenu
regles
telle
demanda
quitte
surprise
erreurs
poids
prison
##er
bateau
dangereux
end
furent
allait
japonais
parapluie
piano
plupart
refuse
asseoir
autour
noir
poisson
avions
danser
avocat
tour
attendais
auriez
court
doute
femmes
hors
serieux
tue
adresse
feriez
serez
##ont
derange
regardez
repas
succes
calme
chante
dirait
gentil
appareil
bu
douleur
grosse
lunettes
##tion
jeu
entends
experience
mit
quels
triste
##lle
face
fermer
invite
pire
projet
sol
##rent
entreprise
pommes
allee
amoureux
fera
lac
pose
quitter
reussi
simple
sommeil
tire
apporte
arme
coucher
courant
impression
patron
promets
risque
venue
aie
avance
conseille
essayez
haut
radio
salle
bizarre
certains
danger
fatiguee
idiot
lever
seconde
tenir
bonnes
oncle
photos
seras
taxi
##ique
chemise
cheval
esprit
force
impossible
mariage
message
travers
aise
car
chats
proche
prudent
sucre
##on
attendu
avaient
difference
interieur
mari
aiment
cent
certaine
opinion
voix
##as
courir
ignorais
neuf
rappeler
souci
bons
connaitre
egalement
habite
parviens
proposition
savons
senti
##rons
batiment
concert
imagine
voyager
alles
compter
conseils
occasion
portes
tableau
animaux
banque
durant
emprunter
garcons
occuper
pieds
rends
signifie
sorti
##tte
amusant
certaines
etudiant
ciel
couleur
moyen
promis
rejouis
taille
##me
30
attrape
papier
presenter
viande
##u
dedans
guitare
inconvenient
reflechir
retourner
##ions
##sse
contente
enseignant
oui
present
tiens
##ce
##de
cles
dents
envoye
prit
intelligent
ni
oblige
suivre
environ
parfait
tempete
œufs
attraper
cesse
chaise
donna
dos
menti
prepare
satisfait
empecher
facilement
rencontres
ressemble
crains
jeunes
##que
discours
drole
semaines
tuer
visage
##ble
bout
connaissez
eut
hiver
moitie
propres
supporter
vide
viendra
vingt
debout
fus
oubliez
semblez
soiree
utilise
coupe
responsable
signe
allais
attendez
coin
eleves
enfin
enseigne
honte
nombre
rarement
reveille
amerique
different
ferait
idees
nettoyer
selon
sors
voyez
aille
aimait
continuer
docteur
habituellement
irai
mettez
parles
pomme
tokyo
cache
espoir
gauche
mille
pars
permis
prevu
sentir
stylo
##nce
aeroport
blanc
conscience
forme
lave
mur
pleut
rhume
tranquille
vouliez
cense
couteau
inquiete
lis
machine
repondu
tente
##rai
arrives
bord
gout
honnete
partout
prefererais
rapide
remarque
roman
sept
service
universite
vivent
vol
avenir
battre
douche
importante
reconnaissant
sourire
su
ennuis
groupe
mien
verifier
canape
entretenir
glace
lentement
marier
monte
note
obtenir
pain
semblait
seuls
vieil
amuse
bain
habitue
huit
reussir
sache
suggere
accepter
arrivee
debut
dieu
embrasser
faveur
fiche
nerveux
passee
thomas
##ation
##in
blague
copine
eleve
exterieur
information
longue
tel
touche
utile
vent
##ure
aimeriez
attend
cadeaux
celebre
chacun
maladie
ouverte
parole
tombee
bouteille
cravate
cuisiner
etats
fallu
frappe
generalement
parlons
president
revenu
sentiment
accepte
decider
jolie
mer
offre
preparer
prets
public
vecu
##c
certainement
convaincu
loi
pourrions
regle
remercier
retourne
unis
vendre
an
commenca
gerer
mariee
montagne
recherche
##ale
##tre
corps
courses
etage
pensait
revenir
societe
##che
etat
humeur
langues
presente
##teur
aurai
dirai
disent
epouse
ouvre
pauvre
portait
savent
serieusement
##ion
laver
parfaitement
pause
preter
prudente
seront
terminer
##x
cartes
commande
dise
excuse
nez
phrase
restes
tourne
truc
actuellement
envers
faisais
grands
mentir
obtenu
patient
possede
promesse
voila
##rait
arrivera
aura
autorise
but
celles
cinema
croit
embrasse
epoque
moyens
nulle
octobre
pleure
prevois
reellement
##aient
##al
##ier
appartement
bouton
chouette
conduit
decu
dure
endormi
forte
importance
memes
morte
musee
pont
produire
promenade
quelconque
sembles
solution
soupe
sport
appartient
arbres
choisir
connaissance
entree
football
mienne
oiseau
pleine
proteger
traite
abandonne
eteindre
extremement
frais
freres
ira
occupes
sauf
assurer
balle
convaincre
ecris
eglise
lors
merite
pecher
ravi
souvenir
##0
chef
connu
contact
inquiet
john
joindre
match
paix
preferee
retraite
soyons
sympa
tenez
valise
afin
clair
conseilla
controle
dort
heureuses
regarda
tient
##age
##la
##pe
chocolat
choisi
droite
echoue
fiere
fruits
or
serons
super
article
comprend
excuser
fallait
faux
gouvernement
jeter
legumes
ligne
permettre
pique
regrette
seules
silencieux
traverser
trompe
voitures
##nte
auras
date
demandais
plaindre
politique
pretes
quelles
sang
sortie
trucs
vienne
##able
##ine
##tes
attentivement
correctement
couper
dejeune
devait
ennemi
fasses
lune
medicament
morceau
nouveaux
perte
vus
##ille
##ite
##les
##ve
absolument
compagnie
croyais
decouvert
depense
ensuite
explication
prendra
sent
soucie
voler
##ies
##na
crayon
echecs
instituteur
mangez
mensonge
recemment
village
##ee
agreable
cloche
corde
dirais
particulier
peint
printemps
surs
sœurs
venus
##urs
abandonner
appelez
arret
brise
coupable
crime
demandez
doivent
explique
foule
parait
parlent
remettre
reves
blessee
chanceux
devient
entierement
epouser
hate
invites
morts
oiseaux
soient
sortez
sures
voisins
abord
aurez
base
cru
energie
essaya
faits
interessante
jambe
oublier
paire
suivi
##au
##nes
billet
bouche
chaleur
conge
debarrasser
esperons
imaginer
incendie
nage
nouvel
passez
permission
sonne
##if
##tique
acquisition
comprenez
direction
disparu
distance
envoyer
larmes
lettres
lycee
met
parie
refaire
sombre
urgence
vraie
##sion
allume
croyez
enseigner
grave
impatient
incroyable
piscine
portable
raconte
cacher
eh
excusez
grandes
informations
mauvaises
memoire
pizza
portefeuille
prendrai
prive
probable
rate
reviens
salaire
songe
vaisselle
voyons
##ue
10
bagages
chansons
commis
devraient
europe
hasard
maries
mise
plu
precisement
resultats
riz
sel
ticket
traverse
vitesse
##aire
##nts
##ts
absent
accuse
baisse
cancer
connaissait
derniers
devais
dommage
matins
monter
prenons
sentez
sentiments
trouvait
##ire
##iste
14
ailles
arriere
bicyclette
chaude
details
japonaise
magnifique
matinee
montrez
partis
passeport
saviez
silence
tenu
valeur
veste
voit
##rie
art
circulation
difficultes
donnerai
manquer
pensent
put
roi
aimer
amoureuse
appellerai
bleu
bonheur
brule
demi
exercice
faible
implique
meilleurs
policier
realite
sert
veuilles
voleur
##sa
alcool
amene
ayons
connaisse
conversation
horrible
marrant
milieu
offert
papa
plante
pousser
presse
prise
raconter
saches
sort
theorie
toit
##y
assister
aurions
camion
champ
considere
fume
ile
interessee
new
notes
pierre
retire
skier
timide
tirer
vire
voie
vote
##aux
##ise
##res
amuser
apprends
approche
armes
assise
boisson
boit
campagne
construit
danse
depend
devint
differentes
echapper
essayons
fassiez
gars
imagination
lache
medicaments
navire
offrir
peinture
poche
sauver
soldats
suffit
veritable
visiter
##cte
##ns
apporter
atteint
baseball
comporte
depart
doigt
ecoutez
eviter
feuilles
golf
malheureusement
manges
marre
monnaie
petits
profondement
reposer
restee
resultat
sauve
siege
vues
zoo
##d
appel
coffre
discussion
disposez
disposons
fenetres
idiote
impressionne
jeux
menteur
merveilleux
normal
occupees
page
parlait
samedi
terrible
traduire
vint
york
##ront
alliez
blesser
cents
costume
couru
devenue
discute
folle
genial
incapable
jambes
maman
nee
reveiller
sale
souffle
toilettes
trouves
viendrai
##gue
##ter
biscuits
chere
clairement
courage
couvert
differente
effraye
etrangers
faudra
fermee
fermez
films
grandi
joues
londres
obligee
preuve
rendit
terminee
tien
tourner
verifie
video
##ir
##ner
##rais
##us
aurons
bouger
cassee
centre
course
efforts
esperais
eteint
etrangere
fil
fond
gardez
gentille
laisserai
lisez
ouvrez
pantalon
pieces
plans
recommande
regime
semblant
unique
vert
##ca
##cha
##h
##ler
##sent
changement
convient
dentiste
dors
enfance
ennuyeux
meurtre
moteur
noms
pareille
peindre
personnel
reconnu
ri
roses
rumeur
souris
station
tache
tandis
tenait
tienne
traiter
treize
##ole
assurance
attaque
belles
bienvenue
charge
contrat
crie
demissionner
dingue
disputer
doigts
fatigues
indiquer
jaloux
maisons
malheureux
mec
mignonne
odeur
oreilles
ouvrit
preferes
programme
puissions
saute
sauter
sortit
soudain
supermarche
systeme
toucher
viennent
vivant
yens
##ante
##ments
allees
assit
difficiles
ecrivez
emmener
general
horreur
intelligente
mecs
membre
ordinaire
portez
pousse
projets
proximite
repeter
repos
resolu
resterai
soif
sommet
souffre
urgent
veuille
voulaient
##be
##sait
agir
assure
atteindre
bonjour
cercle
commun
decida
disait
dises
egard
fortune
garage
innocent
inutile
lumieres
mangent
mignon
ordre
populaire
rencontree
##ma
##nne
##nons
##rite
##tions
aiderai
aimais
aimons
aliments
aupres
aveugle
cessez
comportement
crise
detendre
exemple
foret
image
ivre
jette
partage
patience
poeme
population
promener
prouver
remis
retirer
supporte
verrai
##ement
animal
arreta
chanteur
commencons
concentrer
creme
critique
diplome
emmene
emporter
eus
fiers
fous
garer
histoires
invitation
peche
pratiquement
queue
regard
special
totalement
uns
##ive
##siez
##ule
aides
armee
arriva
arrivent
attendait
blanche
caisse
canadien
confectionne
credit
decouvrir
dine
fievre
france
inquieter
ordres
paie
passes
plantes
possibilite
repare
reponses
sentait
sentis
sortes
timbres
vase
venues
##ins
##mment
##ois
##ou
##son
##sons
##ta
amitie
complique
curieux
depeche
disposes
echappe
echec
emprunte
entier
explosion
fer
flics
forces
ignorer
improbable
laissa
laisses
limite
mathematiques
oreille
pratique
prudents
raisons
serieuse
serre
survenu
travailles
vendu
##gne
##igne
aidez
ailleurs
artiste
continuez
couramment
demarrer
devine
estomac
excellent
infirmiere
jouez
journaux
panne
parmi
quant
riches
spectacle
talent
temperature
##lles
##onne
##ume
alla
allions
attendons
attendrai
beurre
cherchez
conscient
copain
couche
decue
deprime
donnees
enseignante
epaule
epuise
essence
explications
failli
ferions
foot
joueur
ouvrage
paris
passait
poissons
pouviez
promesses
quinze
raisonnable
recevoir
refusa
rendue
soi
suspect
terme
travaillent
usage
veniez
##ance
ameliore
apprecierais
aussitot
cherches
combat
conduis
controler
courrier
demenage
enorme
entraine
etagere
etoiles
fromage
fumee
guere
habille
haute
heros
jackson
loyer
magazine
minuit
partez
partons
parvenir
perdit
petites
plat
pouvions
ravie
realise
rejoindre
responsabilite
souhaiterais
souhaitez
vivons
voudrait
##ot
##pes
##ras
##ses
##uses
admire
ascenseur
augmentation
barbe
beaute
blesses
buvez
celibataire
connaissais
deranger
descendre
disponible
disposer
divorce
futur
institutrice
interet
laissee
leger
membres
moque
nature
nourrir
orange
parfaite
partager
posa
puisses
rappelez
reconnaissante
sentais
sentie
servir
vendredi
##lait
##m
##rd
##rer
##sez
##tant
bete
chaussettes
club
conduite
contrarie
coups
decede
dernieres
enquete
environs
escaliers
eveille
grace
habituee
impatiente
invitee
nerveuse
nord
periode
presence
rater
regardes
respecte
ressens
sapin
servi
serviette
suivant
travaillez
veille
##da
##lement
##lite
##riez
##tons
aidera
aimerait
beaux
billets
chauffeur
cinquante
continua
copie
dame
derangerait
dessous
ecoutes
ecrivain
efficace
emporte
enerve
facture
he
lourd
partit
piege
points
puissiez
remercie
suffisant
telles
tendance
tomba
tremblement
voisin
##ales
##cteur
##oir
##tif
acquerir
addition
admettre
annonce
apportez
bague
chatte
chine
colline
crier
cuisinier
delicieux
deuxieme
education
faite
franchement
froide
fumes
inviter
lance
longs
mondiale
monsieur
nique
oublierai
perds
plaint
pression
prudentes
resta
reveillee
rompu
saison
sandwich
sieste
site
soulage
test
vend
web
##des
##ide
##nd
##ste
##tra
##ves
apprecient
asseyez
assistance
augmente
auraient
ball
bouge
brouillard
chances
chinois
courte
differents
difficulte
effet
entendue
etudiante
fermes
file
gentillesse
internet
menace
perdue
poches
quantite
remonte
rencontrees
rentree
respect
sachiez
sage
saoul
soixante
somme
trouvez
volontaire
##iques
##lant
##ls
##niez
##tait
000
ajouter
ancien
arretes
autorises
chateau
choisis
clients
complet
depecher
deroule
descends
deviner
disiez
doue
drogue
electricite
exprimer
feras
fis
herbe
immeuble
juge
liquide
malin
montra
nu
nuages
objectif
paresseux
pourrai
preferable
preoccupe
progres
quartier
rappelles
reserve
ridicule
risques
semblent
sud
tapis
traitement
vieilles
##cle
##ction
allemand
americain
amusee
annule
auquel
capables
ceinture
chevaux
commettre
courut
declare
demandes
fassions
frappa
frapper
gaz
horloge
impatience
instructions
joli
meilleures
miroir
mode
mortes
operation
paquet
parlais
plainte
remonter
rempli
ressenti
rouges
sable
sejourne
souper
tenue
theatre
toile
trouvee
valises
##ible
##nais
##oire
##tation
##ures
aient
assieds
auteur
banc
bar
capitale
cesser
concerne
conference
conges
connaissent
connaissons
consulter
detail
double
egal
examens
familier
fonctionner
formulaire
four
illegal
jouait
joyeux
jure
lecon
lecture
longues
malgre
medecins
mene
mordu
natif
pardonne
possibilites
poupee
proches
produits
refrigerateur
retrouver
saint
seche
sourit
stupides
tante
tarte
tiroir
troisieme
##bles
##eur
##ort
100
absence
adorent
apparence
baisser
bleue
camp
client
correct
coule
cour
distinguer
economie
ennuyer
entra
etudes
exige
fache
fatiguees
fautes
honnetete
jete
leva
louer
loupe
participer
parvenu
passa
poulet
preferez
prisonniers
profond
puni
refuser
remede
remets
remise
rende
rendrai
repose
romans
secours
situe
ski
solaire
tromper
trou
viennes
vivait
##aine
##iser
##nique
##rier
##ture
album
arriverait
blagues
canadienne
chanceuse
cherchais
choisissez
commencez
contacter
demie
determine
diable
ecart
entendit
essaies
etrangeres
fleur
francaise
frequence
fruit
gants
genie
honneur
importantes
jouent
jouons
logique
maire
mentionne
neiger
ordinateurs
parte
persuader
pointe
posez
preuves
prevenu
relation
satisfaite
travaillons
trouva
tues
##cher
##ieme
##irent
##sant
##vait
20
accompagne
accompagner
accomplir
actuelle
admets
agee
alarme
ameliorer
attendent
automne
blessees
censee
conditions
constamment
demeure
employe
enleve
evidence
fleuve
hauteur
hein
hurler
matiere
naissance
organise
pale
particulierement
parties
passagers
planete
poster
poussiere
prevoyez
quotidiennement
recuperer
reduire
regler
repondit
respecter
reviendra
rit
rues
science
sortons
soudainement
survecu
verrouille
violon
volonte
##cer
##f
##fie
##ile
##imes
##ing
##lons
##nel
##ote
##teurs
##viendra
2013
agissait
aine
amuses
applique
arrivez
autorisee
basse
bol
capitaine
chandail
changements
charger
choc
clef
coincidence
concours
depourvu
dessert
directement
directeur
elu
employer
employes
engage
ennemis
entrez
essayais
estime
etant
excite
existe
ferons
fetes
fournir
gorge
indique
jalouse
jus
lampe
liberte
mechant
merveilleuse
meubles
miracle
naturel
nul
optimiste
paroles
patronne
pattes
peau
plaisanter
respirer
rever
role
trouvent
##ations
##ces
##iere
##nait
##p
##va
accidents
affecte
allergique
allonge
allumer
annuler
apprecier
brosse
choque
cigarette
claire
compare
conducteur
convaincue
detruit
devenus
egoiste
embarrasse
espace
eteins
evident
firent
gene
grimper
impots
incroyablement
informe
injuste
invente
irons
jaune
malentendu
ment
mourut
objection
os
pareil
parla
penetrer
places
pleuvra
prenom
prevenir
profonde
publie
reflechi
reflechis
remettez
rentres
retrouve
rose
sain
salade
scientifique
sentit
suicide
supplementaire
survivre
sympathique
tableaux
vivez
##cons
##ees
##gre
##mie
##nions
##tez
achats
amical
bienvenu
carottes
confortable
contents
contrariee
corriger
cotes
demissionne
desire
disais
dispute
dote
durer
echange
espagne
etoffe
etoile
etudies
exact
expert
expres
fantastique
fantomes
furieux
goute
humains
humour
interdit
jazz
lignes
magasins
manieres
marteau
mission
moral
niveau
obeir
objet
onze
plafond
possession
qualite
quarante
revienne
satisfaits
secrets
superbe
taux
usine
villes
##b
##cier
##g
##ia
##ic
##ien
##iens
##ieuse
##liez
##naire
##tage
##tiez
##ut
##ute
accompli
accorde
accroche
adorable
adorerais
appelee
appelles
arrivees
attitude
avancer
baiser
battu
blamer
consacre
discutons
douzaine
effectuer
empeche
ennuie
enverrai
examiner
excellente
facons
faisiez
fausse
figure
forts
gueule
interesses
interrompre
joie
manche
menteuse
metres
metro
millions
mont
obliges
oublions
pauvres
pensiez
perplexe
quasiment
ressources
restait
retarde
retenir
reussite
sales
savaient
signer
sortis
suivez
taches
unes
vache
venait
violence
virer
volant
##5
##ctive
##ges
##il
##isation
##lage
##li
##mation
##per
##pte
##qua
##ques
##rde
##rez
##tent
##ti
##tie
##ttes
##vant
achetee
acteur
aimable
asseyons
ballon
boissons
cherchait
cloture
compose
courageux
cuire
debrouille
depasse
disposais
domicile
douze
effort
eloigne
encre
envoie
forcee
forcer
foudre
gele
gere
habituer
italie
juger
justice
locuteur
lourde
mangeons
mensonges
montrerai
nie
ocean
oh
options
pardon
partiel
passage
passera
pleuve
pneu
poli
portent
pourraient
rare
rendra
retira
scene
suggestion
supposee
telephoner
terriblement
tickets
trahi
vaches
voter
œuvre
##ct
##gique
##ieux
##isse
##lin
##mons
##nee
##oua
##ree
##rs
acheta
adultes
agent
ambulance
balles
bananes
cardiaque
casser
ceremonie
changent
chargee
ciseaux
correcte
cousin
cruel
debrouiller
desaccord
diagnostique
diriez
document
documents
doux
echelle
endormir
entendis
entiere
enveloppe
etudiez
faisaient
ferez
fiable
gentils
grossier
hesite
huile
impressionnee
inhabituel
jeta
legerement
mangea
montagnes
mouchoir
moyenne
ouest
ours
pleurait
pleuvait
pot
prisonnier
prof
quelconques
regardait
rendent
reponds
repris
reservation
sensible
serpents
sienne
sincere
teint
touchez
vente
voleurs
##ames
##at
##ck
##con
##cule
##os
##ppe
##quin
##ssent
actrice
admis
afrique
ambition
arretee
attirer
batterie
blessure
branche
camera
coince
comite
commencent
commences
couple
courriel
croyait
cuillere
defi
demarre
depechez
depenser
deprimee
doutes
effectue
effrayee
emplettes
endormie
etang
etude
fac
formidable
fuji
genoux
grimpe
heureusement
horaire
humide
incapacite
issue
jetez
jupe
lapin
levres
libres
linge
marque
mars
mens
meteo
methode
miens
moderne
objectifs
ombre
pelouse
perd
persuade
petrole
plaintes
position
produise
prononcer
pull
reconnais
reviendrai
signification
similaire
source
surement
tendu
verse
##3
##4
##aires
##ate
##cieuse
##et
##gir
##iers
##ime
##lot
##mis
##nde
##nelle
##ni
##rouille
aida
alentours
allemagne
ambitieux
amener
americains
arretons
arrivait
assiette
assiste
attache
avantage
bal
bataille
bombe
causer
centaines
comptes
condition
contient
contraire
cout
coutera
creve
croient
cuisiniere
demenager
descendez
detestent
eclata
ecrite
epaules
etudiantes
evidemment
exacte
exception
factures
ferma
gratuit
habillee
harvard
identite
jouets
lancer
manques
maternelle
mince
naif
necessaires
noirs
nomme
opportunite
ouvertes
panier
papiers
payee
pensons
placard
poignee
privee
professionnel
propose
ramene
regulierement
remplir
reproche
saisi
soigneusement
sonna
sourd
supplementaires
surprises
tape
televiseur
temoin
traduction
travaillais
utilisez
vehicule
victime
œuf
##1
##2
##chons
##cture
##dit
##ng
##ologie
##ore
##ps
##raient
##ssa
##ton
##ution
abattu
abri
action
agees
application
appuyer
araignees
calmes
chasse
classique
collier
connue
couleurs
couter
couverture
depenses
destin
determiner
dira
donnee
ecriture
election
eprouve
evenement
faisant
favori
fortes
frontiere
fuite
gardes
gratuitement
grenier
importants
large
mesures
miel
noire
oppose
oranges
participe
passees
permettez
personnelle
personnellement
poil
poule
prises
profondeur
promit
publicite
rattraper
ressemblent
rumeurs
sacs
salon
seau
serions
souri
souvenez
tenter
traduit
trouverais
trouveras
verres
viendras
voient
##ateur
##bre
##cant
##ches
##die
##fait
##he
##hi
##isme
##lation
##lise
##lit
##prit
##sions
##sses
##tive
##vais
##vons
accent
acheterais
adopte
adulte
apparemment
appetit
approuve
attirante
boue
bougies
brillant
chaises
chanteuse
collection
commentaire
confus
construire
conte
cou
decrire
descendu
detonation
distrait
dorment
doucement
empire
endroits
entres
envisager
esperait
evite
finit
folles
fourchette
habiller
insiste
iras
kilometres
laissons
langage
lent
licencie
loup
marchandises
milliers
nerfs
nettoie
offense
ongles
origine
oses
parcourir
pardonner
permet
presents
prononce
protection
prudence
rejete
repondez
reprises
resister
responsabilites
responsables
salut
secondes
serrure
style
subi
suit
surprendre
surveille
tels
tendit
trompes
trouvais
utilite
##ba
##bli
##cieux
##cois
##der
##dition
##dons
##ence
##ger
##igner
##isant
##laire
##lir
##ome
##ond
##ong
##oque
##ota
##oue
##ouille
##see
##sser
##tiques
##ueux
##ulte
##vienne
abeille
accorder
aimee
ame
approcher
arranger
assistant
attendit
aube
augmenter
banane
basket
boites
boutique
bœuf
caches
chic
choquee
code
compromis
condamne
confiant
debarrasse
delai
destination
devenues
deviens
divorcer
douloureux
eclate
enfui
enfuir
enseignants
envoyez
epais
etasuniens
etonne
etres
excitant
flic
foire
frigo
gerant
hautement
hesitez
heurte
inde
insulte
intime
invitees
jouais
jumeaux
maitre
mirent
modele
montez
moto
nana
nettoye
obligees
outils
passons
payes
pese
physique
poete
ponctuel
prevoir
quittez
regretter
renverse
repete
reprocher
ressembles
retenu
retirez
rouler
scientifiques
secretaire
sentent
sites
soins
soucis
souhaiter
taire
tas
tatouage
tentative
terrain
touristes
trouverai
viendrais
visa
voisinage
##6
##ain
##ard
##dite
##gle
##ifie
##ison
##mer
##nant
##nie
##nse
##nsible
##once
##ousse
##rant
##ration
##ssant
##ver
##vis
aboyer
absente
actions
ajoute
angleterre
apprecies
appreciez
apprend
autrefois
autrement
avise
ayant
besoins
calendrier
camper
candidature
cd
cede
censes
changera
cheque
chinoise
comptez
concentre
consequences
continuait
credule
culture
decevoir
descendit
desespere
dette
dettes
devenait
donnes
ecrase
electronique
embauche
entraineur
epargne
eteignez
etendu
expliqua
extraordinaire
fantome
fermees
fraiche
gaspiller
grosses
ignorez
innocence
interprete
juin
kyoto
levee
magazines
maigre
malchanceux
malheureuse
manquez
maths
maux
medecine
miennes
mignons
million
mises
morceaux
moustiques
murs
musicien
mystere
normale
noye
nue
nuits
obscurite
ouverts
parlerai
partirai
passent
petrin
phrases
pistolet
pitie
poison
porc
poursuivi
poursuivre
pouvaient
prennent
preterai
prevoit
promene
rase
regardais
remplissez
remporte
rendrait
renvoye
reprendre
requis
satisfaire
sauce
saura
saurait
sejourner
serrer
shirt
siffler
souvenirs
symptomes
telephonerai
tenta
termes
texte
tranquilles
travailleurs
trouvons
types
univers
venais
verrouillee
victoire
viendrait
voisine
zone
##alite
##cable
##chait
##cien
##cription
##dre
##eux
##gee
##gie
##gna
##iel
##ifier
##ignait
##ignit
##line
##ndre
##ngle
##nsion
##oche
##ola
##op
##ose
##pa
##rine
##rir
##rne
##route
##sie
##ssement
##ssez
##taient
##um
50
adolescent
adolescents
allumette
ancienne
appela
argument
arrange
assurez
atmosphere
attente
bonde
brievement
capacite
chambres
changea
chauve
cigarettes
commerce
consacrer
craint
cuit
decisions
degage
demandai
dent
depit
deplacer
deposer
desert
desirez
deviennent
disposent
eclair
elephants
enceinte
endormis
enigme
enterre
entrainement
epoux
equipage
feuille
fie
finie
fixe
garderai
genereux
gosse
greve
grotte
guide
habitudes
humain
idiots
ignores
informer
journaliste
lachez
levez
longueur
malheur
menu
meurent
mordre
moutons
nation
occuperai
orteils
oublia
panneau
parliez
parvenus
patiente
plaisanterie
plastique
plie
poitrine
preniez
prennes
preparee
principale
proceder
procurer
professeurs
profite
puisque
pus
quart
quitta
rendons
reputation
restons
revient
sauta
sceptique
secrete
sejour
servez
siecle
soucier
souffrir
soutien
souvient
steak
surprenant
survenir
tiendra
utiles
utilises
vain
vies
vive
volume
##ants
##lon
##matique
##nable
##nez
##rable
##table
##tee
##tiens
##tres
##ura
##verse
##vint
##voir
##xe
advenu
aimerions
amusees
avocats
avril
baleine
calmer
camarades
candidat
cependant
chemises
colle
conditionne
conduisez
construction
contentes
cool
corrige
coutent
couvre
cria
curieuse
derobe
devras
digne
dirige
dormait
douce
droits
economise
emotions
engager
entendues
entendus
envoya
espoirs
fachee
faciles
faille
fermement
foi
fonds
frequemment
galerie
geniale
gentleman
grippe
grossiere
habiter
habits
hypothese
impliquee
impressionnant
interessees
joueurs
kilos
librairie
loue
manquent
meritez
millionnaire
ministre
natale
neuve
nier
observe
paierai
pauvrete
penetre
perdus
pilote
plaisante
poker
policiers
portee
precieux
prenne
pressee
promettre
proprietaire
pyjama
reaction
reception
recolte
recommanda
recommencer
regardons
rembourser
reserver
retourna
reussira
revenez
rideau
rythme
sers
sien
sincerement
sinon
soldat
sonner
surpoids
tournez
tracasse
trains
travaillait
traversa
trouble
trouverez
vague
valentin
verrouiller
vertiges
victimes
visiteurs
volontaires
voulions
##8
##atoire
##bus
##cale
##celle
##el
##elle
##enant
##erie
##ication
##iller
##indre
##lette
##man
##omme
##out
##rage
##rions
##rique
##ris
##ser
##ssait
##vient
##ye
##yiez
achever
advienne
agi
aiderait
ainee
americaine
amusez
appelait
appuie
auto
baignoire
bebes
bel
brave
budget
calin
cendres
chauffage
chiot
chute
cible
clefs
climat
commander
conserver
courus
crayons
criminel
debat
decus
defaut
defense
dentifrice
deviendra
devra
devrez
differemment
diminue
disposee
domaine
dotee
economiser
ecoule
effectivement
effrayant
embrassa
emploie
emplois
enfreint
entend
entendez
envisage
essaierai
essayerai
exces
existence
fallut
fichier
fierte
frappee
frites
gamin
genou
glacee
grammaire
gras
hais
imbecile
incident
inevitable
inquiets
insectes
inspiration
intentions
lanca
lesquelles
leves
limites
luxe
manuel
mariees
melange
mentez
merites
micro
nia
normalement
nourri
objets
oignons
option
osaka
panique
partes
parvenue
patients
perdez
personnalite
pierres
pleura
poemes
presser
pretendu
prevenue
principal
profiter
propriete
ramener
realiser
recherches
reflexion
remarques
rendiez
reviennes
rock
saisir
satisfaites
soirs
soulever
soutiens
suicider
superieur
supposes
surface
tension
tentation
timbre
toux
vides
votres
voyages
voyait
zero
##7
##cs
##daire
##du
##euse
##illa
##illes
##k
##loue
##lure
##mant
##mina
##mine
##nette
##niques
##nis
##oncer
##one
##otte
##ouche
##our
##oux
##oyons
##para
##pot
##ri
##ry
##ssante
##tile
##tin
##tit
##uit
##vation
##vent
##viennent
acceptable
acces
acheterai
acheve
agis
ah
ailes
alibi
allai
appels
arriverent
attendant
attentif
autorite
avertir
avocate
bande
batiments
bienvenus
bieres
blancs
bonhomme
bouteilles
brillante
briser
bruler
bruyant
cabane
capte
charmant
chers
chomage
coincee
competition
comporter
concernant
conclusion
connaissiez
consideration
craindre
crainte
curiosite
deces
decevant
decore
defauts
demandait
demanderai
depourvue
dernierement
dessiner
dingues
direct
echarpe
echouer
electrique
elevee
embrassee
entoure
envoyees
espion
essai
experiences
familles
fauche
feront
fondu
fortement
fourni
gache
gacher
gateaux
goutte
gravement
humanite
humble
impoli
inconnu
indifferent
industrie
influence
inquietez
intimite
irait
jugement
laid
lapins
lien
lion
maitriser
marchait
marchez
maria
meurtrier
moquer
mord
natation
naturelle
nes
noter
nus
ordonne
orthographe
ouverture
parfum
parlaient
partira
partirons
passerai
pensees
pensions
pharmacie
pile
plats
pluies
pneus
polie
pourra
pourras
pratiquer
presenta
promettez
redige
reel
religion
renard
reporter
restiez
retournez
revela
revenus
rompre
roule
sauves
sensation
separes
serieuses
solide
songer
souleve
suivante
survivants
talentueux
terrifie
tint
tira
tomates
tourna
trempe
triche
veiller
vends
ventre
verrais
violent
vitre
vivants
voies
volontiers
vomir
vrais
##9
##aye
##bone
##ci
##ciaux
##cit
##cite
##co
##cter
##dra
##ffe
##fiant
##hique
##igna
##iment
##istes
##itation
##ivent
##ives
##jection
##lier
##lions
##llon
##lo
##lu
##mait
##naient
##ol
##ologue
##pide
##prenne
##qu
##quait
##ral
##rme
##ruption
##sante
##sible
##sive
##tais
##tenez
##tir
##trai
##ttons
##ua
##uche
##ueuse
##vage
##venu
aboie
activite
agace
aidee
aiderais
aidiez
allure
ange
araignee
arrache
asie
avoue
balance
biens
blessures
bordel
canadiens
chants
chaussure
commandes
commercial
compliment
consommation
cooperer
coudre
dangereuse
danseur
delicieuse
desir
desoriente
detendu
detestais
devrons
diamant
disant
disputent
dollar
don
donnent
drapeau
durs
economique
effrayes
elegant
embrasses
emmenez
encourage
enterrement
envoyee
epee
escalier
etranges
etudions
eveillee
expliquerai
fauteuil
fermier
feux
fieres
finis
gagnera
gaspille
gris
habitent
heroine
horriblement
images
impliques
inconscient
interessantes
irais
irez
jean
jeans
jeunesse
largue
maladies
mechante
mentent
meprise
metal
mettons
mi
motive
mouvement
nombres
nourris
opinions
oreiller
organisation
organiser
ouvriers
pagaille
phares
plaire
plombier
precis
presentes
pretend
prince
procure
prononciation
prudemment
raconta
randonnee
rang
ranger
recente
reconnue
reconnus
reduit
region
rejoint
rencontriez
reproduire
reside
revele
rideaux
romantique
sagesse
saurais
savions
sec
singes
speciale
taper
tetu
trembler
uniforme
usa
valable
valait
venons
##abli
##arde
##chon
##cia
##ciale
##ciere
##cution
##gant
##gation
##gi
##gramme
##h30
##ila
##ines
##ises
##isser
##itais
##lique
##lou
##mique
##nds
##nellement
##niste
##ocation
##oint
##onge
##orme
##ors
##paration
##quant
##quer
##rain
##rement
##rge
##rte
##sif
##sus
##urons
##vale
##verti
##vions
##yer
##yons
abasourdi
accro
achetez
acte
affame
agite
allant
allumee
amer
amoureuses
anciens
annulee
apercu
apprendrai
appuye
arretait
arretees
arriverai
atteignit
attendions
auront
automobile
averti
bouchon
bougez
bougie
cambrioleur
cerf
chevre
commencais
commencerent
commerciale
compliquee
considerer
consommer
cooperation
cordes
courts
coutume
cran
croissance
dangers
declara
declenche
decourage
dela
demission
dessin
detestes
disposition
distribue
dommages
dut
ecrivit
embarrassant
embete
enfuit
ennuyeuse
enthousiasme
entretien
epousa
epouvantable
equilibre
escalade
escalader
essayait
essayes
essentiel
etonnant
eumes
eurent
evoque
exigences
expose
exprime
fiancailles
finissons
fusil
gentilles
gouts
hall
honnetes
ignorance
impressionner
intelligents
interesserait
introduit
japonaises
jetons
jouet
justement
laissees
legal
legere
lincoln
lisait
lus
maitresse
menageres
merde
metier
miles
mine
naive
necessite
opera
organisee
paraitre
pardonnerai
parking
partiez
pensee
photographie
poliment
pollution
pompiers
populaires
portail
prenais
prendrais
priorites
production
pue
puits
pure
rappellerai
rapporte
reconnaitre
record
regardent
reine
relations
remarquer
rembourserai
restera
revenue
ronfle
ruine
sachant
secoue
semestre
seraient
souffert
souhait
souhaites
souhaitons
soutenir
supplie
surveiller
titre
trainer
typhon
vendez
veritables
verriez
version
viendrez
vimes
volee
volent
voulut
yen
##ail
##alyse
##cie
##cions
##courir
##crit
##cteurs
##dette
##ds
##eau
##fice
##fois
##gnais
##gnait
##gnez
##guer
##ha
##hensible
##iant
##iction
##ina
##int
##irs
##isee
##iteur
##lie
##mier
##mination
##mon
##ndez
##nement
##phone
##pit
##prehensible
##primer
##pt
##quis
##rehensible
##ries
##riete
##riques
##risa
##rocha
##roie
##rouiller
##rue
##saient
##sque
##stre
##titude
##tration
##uer
##uler
##urant
##vra
##vrit
abeilles
absorbe
alice
alimentation
alite
amende
apprenez
arnaque
arretiez
arrivames
arrivons
arterielle
attrapa
avera
avere
battent
bazar
bizarres
blanches
bonbons
bottes
bouillir
brosser
calcule
canada
capacites
cave
celebres
censees
cerveau
champagne
chantes
cheminee
chirurgien
choisit
collectionner
college
commencement
compassion
comprendrais
conclu
confirmer
confondu
confrontes
connaissances
consomme
contribue
cookies
couler
coupa
coupez
cousine
debutant
decembre
decorer
degats
degoutant
degres
depeches
dessine
detestait
devions
devrai
disparut
disponibles
disque
dus
ecoles
empecha
enferme
enlever
ennuye
entendimes
esclavage
espece
essuie
eue
exagerer
expulse
faibles
falloir
fiez
finira
fonctionnera
fourmis
foyer
fraises
gardons
garee
gaucher
generale
groupes
guitariste
huitres
hurle
imaginee
impressionnes
indice
inflation
inquietude
interrompu
jaunes
jeudi
jusque
laide
laissent
lessive
litterature
majeure
mangee
manifestement
manuels
marchant
marron
medicale
mercredi
meritent
messages
meurs
modeste
moments
montes
munitions
noix
occasions
offrit
onereux
ordonna
original
otages
ouvrages
partent
particuliere
perdant
perdons
pete
pianiste
plaignent
plaisanteries
poing
possibles
postale
potable
pourrons
prenait
prepares
presses
princesse
prirent
puissant
racontez
raquette
rechercher
redire
regardant
remarqua
remplace
reparee
reporte
respiration
ressemblait
restees
reveil
reveilles
revue
saisis
sauvee
scolaire
seize
semblables
serie
serveur
serviettes
sidere
simples
singe
situations
sou
strict
subir
sueur
suivie
suivrai
surmonter
surprend
suspecte
temporaire
tiendrai
tiennent
tirez
tombees
tombes
torche
totale
trompette
trouverons
tuees
vecut
vegetarien
vendent
verrons
vertige
vivais
weekend
##ables
##ages
##bes
##crire
##cu
##drai
##esse
##file
##fique
##gis
##gnon
##icieux
##ignez
##ignirent
##ils
##irai
##ition
##itons
##laient
##laires
##lis
##llage
##logie
##mit
##mite
##mme
##ngions
##ntes
##oie
##oins
##oise
##omique
##oquet
##orca
##ord
##orte
##ouilla
##oyable
##pere
##position
##pris
##rade
##raux
##ria
##sance
##scope
##ssements
##ster
##taire
##time
##tives
##traire
##uel
##ues
##uis
##v
##wa
##xte
##yait
19
500
absents
absurde
accusa
accuserent
actes
adieux
adresser
affreux
allames
alternative
amenez
annoncer
apparue
apprecions
apprennent
approprie
appuyez
architecte
assassine
assiettes
attendiez
attendra
avertissement
bagnole
ble
bleus
bouchee
bourre
bourse
cacha
cachee
carriere
cauchemar
chaine
champs
cherchent
circonstances
commentaires
commets
compagnon
complete
complexe
compreniez
comprise
comptable
conclusions
conduirai
consiste
contraint
cramponnerent
cree
crimes
crut
cuir
cultive
decedee
decouverte
definitive
degote
demandons
deplace
desoles
desordre
detective
detends
differences
disons
distances
dossier
duree
eclater
ecouta
ecoutait
effets
elections
embouteillage
emu
entrainer
entrees
entreprises
environnement
epaisse
essuya
etape
eteignit
examine
exerce
exercer
exigea
exposition
fabrique
fichiers
fidele
front
garantie
gentiment
glisse
gosses
gratte
guise
gym
habitait
halloween
ideal
ignorait
impatients
inquietes
installer
intelligence
intrigue
jouions
labeur
lacets
laissera
largement
latin
lendemain
lois
magie
maitrise
majeur
majorite
marches
materiel
negligent
negociations
nettoya
noyer
nucleaire
obligez
offensee
olympiques
ote
parais
pensa
piste
planter
plut
ponctuelle
positif
possedait
precieuse
prendrait
promotion
prouve
proverbe
quittee
raisins
ramasse
recette
recherchent
recommander
regretteras
remplacer
rendes
reproduira
ressemblez
reveler
richesse
rigole
robinet
rome
rugby
savon
scandale
scie
sentiras
serpent
serra
servent
severe
solitaire
souciez
soupconne
sourde
specialite
stade
statue
stock
stupefait
stylos
suggerer
suisse
sujets
talents
tarder
taxis
telephonique
temple
tiers
troupes
trouvaient
trouvera
truite
ventes
viree
virent
visible
vivaient
##belles
##caire
##cee
##cence
##cent
##ception
##ch
##cial
##cir
##clina
##dis
##do
##dule
##ette
##fection
##fere
##fle
##gan
##gaux
##giste
##gues
##ibles
##ice
##ielle
##igue
##ilier
##ilite
##isons
##lore
##mande
##mule
##ndes
##ndirent
##neur
##nite
##nti
##nu
##oger
##onner
##or
##ouffe
##oui
##oya
##ple
##porta
##quee
##quons
##raine
##raines
##rce
##rnes
##rque
##rre
##saire
##sement
##tenir
##tiale
##tible
##tifs
##trice
##ules
##umer
##urer
##uvre
##val
##vention
##vez
##vier
##vise
##vole
##vre
accepta
accorderent
accusee
accuser
adapter
adolescente
adorait
ages
aident
ambassade
appartiens
apprenons
apprentissage
appuya
articles
aspirine
atroce
attendaient
attendue
atterri
attrapez
attribue
averse
baigner
baissez
bandes
blonde
bowling
bracelet
capture
casquette
cassez
changerai
changes
changez
chant
chantez
charbon
charmante
chauds
cherchiez
cicatrice
claque
comparee
comprennent
comprennes
conflit
constitue
continuons
contrariees
contraries
convenait
coupee
courageuse
courait
crache
creuse
creuser
critiques
croise
cuisines
cultures
decedes
dechire
decidee
decolle
decroche
degueulasse
delicate
desesperee
destinee
detester
dirigeons
distributeur
drogues
ecoutons
effrayees
effrayer
egare
embarrassee
emmenage
empirer
endormit
enormement
enregistre
entrainee
epuisee
espagnol
ex
executer
expliquez
faillite
faineant
farine
fascinant
ferie
fiancee
fixa
fleche
genereuse
grenouille
guerir
hantee
hausse
hauts
herbes
humaine
imaginais
immobile
inattendu
indispensable
ingenieur
innocente
insense
instrument
interromps
irresponsable
jalouses
jumeau
justesse
lentilles
libere
lundis
lustres
mai
maligne
malins
mandat
manquerez
meler
memorise
mentalement
mercis
mexique
mobile
monta
montee
moques
mouille
mouillee
notres
obtiens
obtient
officier
ouie
oxygene
pages
papillons
paradis
paresseuse
parfaits
pari
parlerons
partageons
parvenues
pates
peinte
peintre
percute
perde
permets
peuple
plaisantes
plaisantez
poivre
politiciens
pompier
poussa
poussez
premiers
prendrons
pretre
prevenus
prevoyons
prier
principalement
principe
principes
probabilite
profit
publique
punie
qualifie
raccroche
racontes
ralentir
ras
raser
rat
reconnaissez
refusait
regardiez
rejoindrai
relativement
rencontra
rencontrez
rendus
rentra
ressent
restaurants
retires
retournons
reussiras
reveillez
revint
ruisseau
russe
salee
salue
saumon
selfie
sense
separer
services
signes
sorties
sports
sucreries
surtout
survenait
tabac
tais
tasses
telecommande
tentons
testament
tortues
totalite
toubib
traduis
trahie
transforme
travaillerai
trentaine
tricher
tricote
trouverent
tua
tuberculose
tuyau
veine
verte
virus
vision
vivante
vola
vols
voyiez
œuvres
##ade
##air
##an
##anement
##ans
##antes
##ards
##aute
##bilite
##bots
##cade
##ccupation
##cine
##ctuel
##dicaux
##ession
##ferer
##force
##fre
##gots
##graphie
##gulier
##iffe
##ifications
##ifs
##ignent
##ignes
##ipe
##isez
##issent
##istique
##lateur
##let
##leva
##lotte
##mblaient
##metre
##mi
##monie
##nard
##nche
##ndit
##nter
##oe
##ogne
##oires
##ok
##olue
##om
##onnable
##osa
##oter
##ouc
##ouit
##oupie
##ouru
##oyen
##perant
##quilles
##quine
##rin
##rouva
##ru
##siste
##stique
##tames
##th
##tirent
##tresse
##trons
##tu
##tule
##uleux
##vaux
##veu
##vie
##viendrez
##viens
##vinmes
##vita
##yant
##ys
300
abandonna
abandonnez
abstenir
acier
acquitter
actif
advenir
agisse
ail
aimiez
allonger
ampoule
amusante
anciennes
apparences
applaudi
applaudir
approchez
arriverons
assises
astronomie
attirant
attire
autorisees
baguettes
bail
balai
baton
bible
bidon
bizarrement
bleues
breve
brille
buvons
cadavre
cage
cahier
caisses
candidats
casier
causes
cerisiers
chanceuses
cherchons
cheres
cheville
chicago
cinquieme
cite
citron
clarifier
clin
cogne
coiffeur
coiffure
combattre
compatis
competent
comprendriez
conduise
confronte
contacte
continuent
contracte
convaincus
copies
coton
courez
courtes
couteux
couverte
croira
cruelle
culpabilite
dames
dangereuses
declaration
declarez
decoller
defaite
demandent
desagreable
desastre
deserte
detient
developper
devinez
difficilement
dimanches
diplomee
disparaitre
douceur
dresse
dura
durent
ecrive
ecureuil
elephant
emballe
embeter
enchante
enerver
enlevez
epreuve
equipes
especes
esprits
etroit
excites
exploser
expression
fan
fermeture
financierement
flammes
forcees
fric
gobe
grandement
gratuite
grille
habitez
hache
honnetement
humilie
ignora
ignorent
immense
inconnue
independant
indigne
installe
interessants
interesser
janvier
jolies
juillet
jules
jury
lavee
lavez
livrer
logement
loterie
mangeant
mangerons
manifestation
manquera
marient
mele
menage
meurt
moche
mouches
negocier
niche
noyade
nœud
orage
orateur
ordures
otez
ouvris
paires
parlera
passionnant
patiner
paysage
peigne
perdues
perturbe
photographe
placa
plonge
pouls
pourboire
pourparlers
precises
preparez
pretez
procede
proces
produira
proposer
quittes
rappele
rats
rattrape
realiste
recue
recut
referai
reflechissez
refugies
releve
remarquable
remplie
renommee
repasse
requiers
reserves
respire
ressentir
rigoler
ronde
roue
russie
sacree
saluer
sentirez
septembre
serveuse
serviable
sied
silencieuse
soie
soulagement
soumis
sourcils
souviendrai
subvenir
suggera
suivit
survivra
suspendu
technologie
tissu
tours
trace
traduisez
traites
travaillerons
tremblements
trompee
uniquement
utilisant
viendriez
voile
##ablir
##ances
##anche
##are
##ates
##atif
##ax
##battre
##belle
##blir
##cait
##chappa
##chee
##chi
##chir
##cieuses
##cot
##cre
##ctions
##cue
##dation
##dible
##dio
##dique
##ere
##ets
##fles
##gade
##gent
##git
##gnent
##gniez
##hie
##ieusement
##ieuses
##iles
##iqua
##issez
##ista
##istance
##ita
##ivite
##ki
##laque
##las
##licat
##licite
##llee
##ller
##ltitude
##mais
##mettre
##mode
##muler
##net
##nier
##nsif
##od
##oler
##ologiques
##onde
##ophe
##opin
##orite
##orons
##ortons
##ouillait
##ouir
##oule
##ourdi
##oyaient
##pee
##pie
##piez
##pira
##poser
##pprochons
##psie
##pture
##revisible
##ride
##roduisait
##ruque
##ssions
##ssons
##taires
##tement
##tial
##tiere
##trions
##tures
##uation
##uble
##ud
##uisit
##ulaire
##usse
##utions
##vable
##vateur
##venant
##venons
##verte
##viendrons
##viendront
##vins
##vir
##vront
13
15
25
2h30
abandonnerent
acceptons
accrocher
accueil
achetees
achetes
acquis
admet
agressif
aiguise
aimaient
aimera
ajoutez
alcoolique
alentour
alimentaires
alluma
alphabet
amicale
amicaux
apercevoir
appreciait
approbation
arrivais
assirent
attacha
attaquer
attentes
attentive
autoriser
aventure
avouer
bat
bienvenues
biscuit
boucle
branches
bref
brisee
cacahuetes
californie
calmement
campus
canne
canon
casque
celibataires
chacune
chienne
chiffres
commet
communaute
communication
communiquer
comprenait
comprenons
comptons
confirme
confiture
connexion
consciente
conserve
consideree
consideres
consommes
contentez
couches
cousins
couteaux
couts
couvertures
couvrez
criminels
crue
dauphin
decouvre
decrit
defendre
departement
depechons
dependre
derangee
dessinees
detaillee
deviez
diplomate
directe
dirigea
disposait
douleurs
droles
echanger
echantillon
ecoutais
ecoutee
ecrirai
effraie
eiffel
elegante
emission
ends
entendent
entraider
epinards
etasunien
eteinte
evacuer
eveilles
excursion
exemples
expire
falaise
feliciter
fimes
folie
fonctionnent
fondee
fourre
fumeur
funerailles
gagnes
gate
genee
gorgee
gouttes
grandir
gre
iceberg
impermeable
impliquer
imprudent
impuissant
inspire
insupportable
intelligentes
internationale
intervenir
inutiles
inventer
jambon
jongler
laisserais
lecons
levent
lutte
machines
mangeais
mangerai
manuelle
marcha
marine
marmotte
massage
mecanicien
medical
menaces
mener
menteurs
montres
motif
mouilles
moururent
muscles
natifs
nationale
naturellement
nausee
necessairement
neigera
nerveusement
obei
obligation
offenser
orchestre
organises
paient
paraissait
pareilles
parlant
partenaire
partenaires
partions
parvenez
parvienne
payez
peintures
penible
pente
performance
placer
plaira
pleuvrait
plier
pluvieux
poele
poings
politicien
porta
portrait
posons
posseder
pouce
poursuivit
pourvu
poussent
pouvoirs
precedent
precipite
predire
prejuges
prenant
pressa
prevenant
prevenues
prisonnieres
productif
proposez
provient
provoque
puissance
puissante
puissent
punis
pur
raccourci
raide
rangee
rapproche
rassembla
rechauffer
recoltes
recompense
rediger
regretterez
remporter
remue
rendait
rentrant
repasser
reproduise
requerir
ressentez
restais
restent
retenue
reverrais
rirent
saine
sainte
salua
sauvages
saxophone
seance
seisme
semblerait
seme
sensibles
separe
separees
serment
serrez
serviteur
sinceres
sms
soul
soutenu
spaghettis
supposition
symbole
sympathiques
tartes
technique
tendre
tracer
tradition
traire
traitez
tranche
travailla
tristes
trompez
trouvai
trouviez
tuez
universitaire
utilisation
vaccin
vaincre
valent
vendeur
vendus
verifiez
verrouillez
vif
vigilant
vivrai
volley
voudra
voyant
whisky
##00
##50
##ace
##agir
##ane
##ative
##auter
##axe
##bine
##buse
##caine
##campe
##card
##cede
##charge
##chets
##chez
##cide
##clus
##connait
##cope
##cta
##ctif
##ctrice
##cts
##ctus
##dant
##dapte
##dieux
##dote
##ediction
##ellement
##epere
##ercer
##este
##fa
##ffes
##ffle
##fia
##fiait
##fices
##ficielle
##filer
##fraction
##gations
##gnant
##gon
##gout
##graphe
##hu
##iance
##ige
##ignements
##ignons
##illage
##inrent
##iquement
##ira
##ires
##isa
##isent
##issant
##istait
##itable
##itude
##ka
##lais
##lations
##latte
##lez
##lige
##liser
##luche
##luent
##mature
##mbla
##mee
##mente
##mines
##mions
##monte
##nces
##ndant
##ndriez
##ndrons
##ndu
##neuse
##nner
##ntir
##ociation
##oigne
##ologique
##omprehension
##ope
##ores
##ortiez
##osse
##oti
##oudre
##ouee
##ous
##oyais
##oyait
##penser
##perimente
##pet
##pi
##pines
##pita
##plia
##pons
##primante
##prime
##quence
##ran
##ratif
##rche
##rice
##riee
##rige
##riole
##rit
##rrence
##sais
##sir
##sseurs
##ssive
##tante
##tar
##tesse
##tine
##tint
##tis
##toir
##trait
##truisent
##ui
##uir
##uree
##urne
##vante
##venait
##venance
##venez
##verser
##viser
##visions
##vit
##yions
00
16
abandonnes
aboli
achevee
activites
adopter
adorais
adressee
affection
affirme
affreusement
agriculteur
aiguille
aimeras
aimerez
alimentaire
allergie
allumez
allusion
americaines
amusons
anglaise
angle
anneau
apparition
apparut
appreciais
arretera
arrose
arroser
asthme
astucieux
attaqua
auxquelles
avale
bains
balade
baleines
barre
barriere
bateaux
battus
bijoux
bio
blame
boucles
brulee
cable
cafard
carton
causee
cessa
chair
chantait
chasser
chasseur
cheques
choques
cingle
clous
cochons
colis
collegues
commission
competences
complets
compteur
concu
confiante
confier
congres
connaisses
connus
conseiller
contenait
contenir
contribuer
convenable
conviendrait
copains
correspond
couloir
coutumes
couverts
covid
crane
crea
creer
cri
criait
croises
croix
cueilli
cuilleres
debattre
decharge
decor
decues
defis
defunt
deguise
denue
depose
desesperement
detendue
detenu
detonations
detruire
devaient
developpe
differe
diront
disposees
disposions
dissimuler
doive
domestiques
donnera
dorenavant
draguer
dresser
effondrer
elever
eloignes
eloignez
empoisonne
ennemies
ennuyez
enqueter
enregistrer
entendais
entraines
epargner
epicee
eprouvant
eteintes
etendue
eternellement
etiquette
etouffe
euros
evier
excitee
explose
facteur
faudrait
felicite
fichez
fixer
flute
foirer
fonction
forment
fouille
fournit
fourrure
foutu
franc
fumait
furieuse
fusillade
gaffe
gaspillez
gel
glissant
habile
habites
haleine
haricots
hideux
hilarant
hockey
horrifie
imiter
impliquees
impressionnees
incorrect
incroyables
indecis
informatique
innombrables
inscrit
intentionnellement
interrompez
intersection
inventa
invention
ivrogne
jesus
job
joignez
journalistes
jugez
jumelles
lacet
laisseront
laves
lie
lisant
livraison
local
locuteurs
maladroit
mangera
marathon
marchera
maree
materiaux
mecontent
medaille
mention
meres
metaux
mettent
meure
mineur
minimum
mobilier
moustache
mozart
musees
mutuellement
nations
nees
negative
negligence
nettoyez
niece
nourrit
noyee
occupera
ok
oter
pacifique
papillon
parcourut
pardonnez
park
passager
passant
passerent
pasteque
pathetique
patienter
pensaient
perdis
permettrai
personnelles
pertes
peser
pessimiste
pige
plains
planche
pleines
pleins
pop
possedes
poules
poupees
pourrie
predit
preparees
preserver
procedure
professionnelle
profil
progressivement
provisions
quatorze
raciste
rampe
rassemble
rechauffe
recoit
recommence
recule
recupere
redemarrer
refais
relache
religieux
remit
remplis
rencontrons
renouveler
rentrez
repandue
repond
represente
requise
reussit
revolution
revu
routes
ruban
ruines
ruse
sacre
sains
sanglots
sanguin
sarcastique
scolaires
secheresse
seduisante
sein
semblable
shakespeare
shopping
signez
situee
sortait
souciais
soudaine
souhaitais
soulagee
souriez
souvienne
strictement
suggestions
suivrait
susceptible
sushis
sut
taxes
tentes
tester
texto
tigre
total
tragedie
traine
trait
traitent
transpire
transporte
tresor
tribunal
trouvees
trouvions
tube
tuerai
union
utilisent
viendront
visiblement
voudront
##!
##"
##$
##%
##&
##'
##(
##)
##+
##,
##-
##.
##/
##:
##;
##?
##j
##q
##w
##«
##»
##œ
##‘
##’
##‽
